/* Copyright 2019 The TensorFlow Authors. All Rights Reserved.

Licensed under the Apache License, Version 2.0 (the "License");
you may not use this file except in compliance with the License.
You may obtain a copy of the License at

    http://www.apache.org/licenses/LICENSE-2.0

Unless required by applicable law or agreed to in writing, software
distributed under the License is distributed on an "AS IS" BASIS,
WITHOUT WARRANTIES OR CONDITIONS OF ANY KIND, either express or implied.
See the License for the specific language governing permissions and
limitations under the License.
==============================================================================*/

// Automatically created from a TensorFlow Lite flatbuffer using the command:
// xxd -i sine_model.tflite > sine_model_data.cc
// See the README for a full description of the creation process.

#include "tensorflow/lite/micro/examples/hello_world/sine_model_data.h"

// We need to keep the data array aligned on some architectures.
#ifdef __has_attribute
#define HAVE_ATTRIBUTE(x) __has_attribute(x)
#else
#define HAVE_ATTRIBUTE(x) 0
#endif
#if HAVE_ATTRIBUTE(aligned) || (defined(__GNUC__) && !defined(__clang__))
#define DATA_ALIGN_ATTRIBUTE __attribute__((aligned(4)))
#else
#define DATA_ALIGN_ATTRIBUTE
#endif

const unsigned char g_sine_model_data[] DATA_ALIGN_ATTRIBUTE = {
    0x18, 0x00, 0x00, 0x00, 0x54, 0x46, 0x4c, 0x33, 0x00, 0x00, 0x0e, 0x00,
  0x18, 0x00, 0x04, 0x00, 0x08, 0x00, 0x0c, 0x00, 0x10, 0x00, 0x14, 0x00,
  0x0e, 0x00, 0x00, 0x00, 0x03, 0x00, 0x00, 0x00, 0xe4, 0x1b, 0x00, 0x00,
  0xd8, 0x18, 0x00, 0x00, 0xc0, 0x18, 0x00, 0x00, 0x04, 0x00, 0x00, 0x00,
  0x08, 0x00, 0x00, 0x00, 0xb0, 0x18, 0x00, 0x00, 0xe8, 0x0c, 0x00, 0x00,
  0x6c, 0x0c, 0x00, 0x00, 0x64, 0x0c, 0x00, 0x00, 0x5c, 0x0c, 0x00, 0x00,
  0x94, 0x00, 0x00, 0x00, 0x8c, 0x00, 0x00, 0x00, 0x04, 0x00, 0x00, 0x00,
  0x3a, 0xf3, 0xff, 0xff, 0x04, 0x00, 0x00, 0x00, 0x78, 0x00, 0x00, 0x00,
  0x27, 0x9b, 0x2f, 0x3d, 0x6d, 0x2f, 0x7c, 0xbd, 0x92, 0x90, 0x99, 0x3c,
  0x93, 0x95, 0x4c, 0xbd, 0xc6, 0x45, 0x0f, 0x3d, 0xcf, 0x9d, 0x8a, 0xbd,
  0x7b, 0x02, 0xc3, 0xbd, 0x97, 0x83, 0x3e, 0xbc, 0xc1, 0x0c, 0x78, 0xbd,
  0x83, 0xe6, 0xa6, 0x3c, 0x60, 0x4d, 0x56, 0x3c, 0xaa, 0x26, 0xb5, 0xbd,
  0x05, 0x6f, 0x12, 0x3d, 0xfb, 0xd8, 0x71, 0xbd, 0x13, 0xe1, 0xb3, 0xbd,
  0x1d, 0x65, 0x45, 0xbd, 0xbd, 0x13, 0x9f, 0xbc, 0x3e, 0x08, 0x9a, 0xbc,
  0x51, 0x19, 0x61, 0x3d, 0x44, 0xb2, 0x16, 0x3d, 0x9e, 0xbd, 0xa8, 0xbd,
  0x0e, 0xec, 0xe8, 0xbb, 0x19, 0x4a, 0x66, 0x3d, 0x7a, 0xb3, 0x92, 0xbd,
  0xee, 0xe2, 0x20, 0xbc, 0x22, 0x75, 0xc1, 0xbd, 0x98, 0x17, 0x88, 0xbd,
  0xcf, 0x71, 0xbe, 0x3c, 0x90, 0x87, 0x98, 0x3c, 0x03, 0x8d, 0x80, 0xbd,
  0xf8, 0xe4, 0xff, 0xff, 0xc2, 0xf3, 0xff, 0xff, 0x04, 0x00, 0x00, 0x00,
  0xb8, 0x0b, 0x00, 0x00, 0xda, 0x05, 0xe6, 0xbd, 0x43, 0x51, 0x84, 0xbe,
  0xd2, 0x5e, 0x9a, 0xbe, 0x8b, 0xef, 0x9e, 0x3e, 0xfe, 0xf6, 0x9d, 0x3e,
  0x5c, 0xf9, 0x37, 0x3e, 0x65, 0x02, 0x07, 0xbe, 0x28, 0x6d, 0x6b, 0x3c,
  0x34, 0x06, 0x98, 0xbd, 0x23, 0x9f, 0xeb, 0x3a, 0xc7, 0x4e, 0x9f, 0xbe,
  0x7e, 0x6c, 0x6d, 0x3d, 0xa9, 0x75, 0x69, 0x3e, 0xbd, 0x58, 0x71, 0xbc,
  0x0c, 0x30, 0xfe, 0xbd, 0x58, 0x94, 0x1d, 0xbe, 0xb4, 0xe7, 0x62, 0xbe,
  0xfa, 0x46, 0x15, 0xbe, 0x48, 0xe5, 0x20, 0xbd, 0xb3, 0x28, 0x0f, 0x3e,
  0xac, 0x58, 0xed, 0xbd, 0xbf, 0xb7, 0x38, 0x3e, 0xef, 0x4c, 0x9d, 0xbe,
  0x19, 0x87, 0xb4, 0xbd, 0x3f, 0x2d, 0xc8, 0x3c, 0x5b, 0x64, 0x37, 0x3e,
  0x4b, 0x4f, 0xaf, 0xbe, 0x3e, 0x82, 0x72, 0x3e, 0x8d, 0x75, 0xb3, 0x3d,
  0x98, 0x72, 0x21, 0xbe, 0x8d, 0xf4, 0x5a, 0xbe, 0xf5, 0x85, 0x94, 0x3d,
  0x74, 0xf1, 0x89, 0xbe, 0x62, 0xeb, 0x35, 0xbe, 0x5e, 0x0c, 0xf7, 0xbd,
  0x4c, 0x8a, 0x1b, 0x3e, 0xa7, 0xc7, 0x24, 0xbd, 0x0f, 0x07, 0x8f, 0x3c,
  0x53, 0x04, 0x7b, 0xbd, 0xaf, 0x6a, 0xa0, 0xbe, 0x5f, 0x4c, 0x46, 0x3e,
  0x98, 0x97, 0xc4, 0xbd, 0xc4, 0x81, 0x4d, 0x3e, 0x98, 0xcb, 0x89, 0x3e,
  0xe2, 0x8f, 0x51, 0xbe, 0x30, 0x68, 0x2c, 0x3d, 0x8a, 0xfd, 0x1d, 0x3e,
  0xe7, 0xd7, 0xaf, 0xbe, 0x41, 0xff, 0x23, 0x3e, 0x2d, 0xc8, 0x78, 0x3e,
  0x47, 0x34, 0x74, 0xbe, 0xa4, 0x26, 0xd5, 0xbd, 0x6d, 0xdf, 0x41, 0xbd,
  0x33, 0xc9, 0x50, 0xbe, 0xe8, 0x4f, 0x8f, 0x3e, 0x8c, 0xce, 0xa3, 0x3c,
  0xd0, 0xe8, 0x8a, 0xbe, 0x55, 0x6b, 0x28, 0xbd, 0xa7, 0x00, 0xfe, 0x3d,
  0x23, 0x3f, 0x91, 0x3e, 0xb8, 0x11, 0x2f, 0xbe, 0x19, 0xa5, 0xa3, 0x3d,
  0x92, 0x06, 0x93, 0x3d, 0x73, 0xee, 0x69, 0xbc, 0x46, 0x89, 0x6a, 0x3e,
  0xee, 0xbd, 0xe6, 0xbd, 0x35, 0x8d, 0x4f, 0x3e, 0x01, 0x70, 0xe5, 0xbd,
  0x23, 0x16, 0x89, 0x3e, 0x7c, 0xe7, 0x9f, 0xbe, 0xe8, 0xd5, 0xdb, 0xbd,
  0x2f, 0x9b, 0x9d, 0x3d, 0x05, 0x11, 0xa8, 0xbd, 0xb4, 0x76, 0x61, 0x3d,
  0xc9, 0x88, 0x6b, 0x3d, 0x49, 0x71, 0x99, 0x3e, 0x4f, 0x2d, 0x7c, 0x3e,
  0x9b, 0x6a, 0x58, 0x3e, 0x62, 0xba, 0x8d, 0x3e, 0x48, 0x24, 0x25, 0x3e,
  0x4c, 0x2d, 0x89, 0xbe, 0x98, 0x52, 0x4c, 0xbd, 0xd3, 0xd4, 0x7e, 0x3d,
  0xfe, 0x76, 0x32, 0x3e, 0x2c, 0x9e, 0x6a, 0x3e, 0xf3, 0xe8, 0x8f, 0x3d,
  0x2b, 0xc8, 0x75, 0xbe, 0x83, 0x09, 0x5d, 0x3e, 0x7a, 0xd5, 0x80, 0x3b,
  0xde, 0xbf, 0x03, 0xbd, 0x08, 0x97, 0x44, 0xb9, 0x9d, 0x05, 0x82, 0xbe,
  0x1f, 0xc8, 0x48, 0xbe, 0xa8, 0x16, 0xc3, 0xbd, 0x9a, 0x4a, 0x40, 0x3d,
  0x36, 0x36, 0x9a, 0x3c, 0x25, 0xf9, 0x5d, 0x3e, 0x0f, 0xae, 0x2c, 0x3e,
  0xc4, 0x28, 0x81, 0x3e, 0x7a, 0x45, 0x63, 0x3d, 0x8d, 0xf2, 0xb7, 0xbd,
  0xd2, 0xb6, 0xf7, 0x3c, 0x7b, 0x04, 0x19, 0xbe, 0xa4, 0x09, 0xa5, 0x3e,
  0x6d, 0x51, 0xe0, 0xbd, 0x9b, 0x1a, 0x6e, 0x3e, 0xae, 0x62, 0x1a, 0xbe,
  0x31, 0x37, 0x93, 0xbd, 0x70, 0xe1, 0x5c, 0xbe, 0x78, 0xa0, 0x6e, 0x3e,
  0x43, 0x12, 0x92, 0xbb, 0x3a, 0xea, 0xac, 0x3d, 0x50, 0x3a, 0x70, 0x3e,
  0xbe, 0x10, 0x5e, 0x3e, 0x9e, 0xd2, 0x98, 0x3e, 0x4b, 0x76, 0x05, 0x3e,
  0xa6, 0xd5, 0x9c, 0xbd, 0xee, 0xcb, 0xf3, 0xbd, 0xb1, 0x4c, 0x36, 0xbe,
  0x8c, 0x95, 0x8c, 0xbe, 0x63, 0x64, 0x6a, 0x3e, 0x53, 0x94, 0x9f, 0xbe,
  0x3f, 0xdb, 0x7f, 0x3d, 0xcf, 0x5e, 0x0d, 0x3d, 0x35, 0x56, 0x52, 0x3e,
  0x6e, 0x1a, 0x93, 0xbe, 0x8a, 0x4e, 0x89, 0xbe, 0x7e, 0x58, 0x5e, 0xbe,
  0xb7, 0x6a, 0x48, 0xbd, 0x96, 0x58, 0x3a, 0xbe, 0x1e, 0xd7, 0x1f, 0x3e,
  0xab, 0x24, 0x9e, 0xbc, 0xbb, 0xe1, 0x83, 0x3e, 0x53, 0x6a, 0x15, 0x3e,
  0x49, 0x63, 0x5b, 0xbe, 0x11, 0x7e, 0xe5, 0xbd, 0x9c, 0xdd, 0x9f, 0x3e,
  0x41, 0x1d, 0x39, 0xbe, 0xc0, 0x3a, 0xa2, 0xbc, 0x4e, 0x91, 0x81, 0xbe,
  0xea, 0x14, 0x2f, 0x3e, 0x18, 0xaa, 0xcd, 0x3d, 0xef, 0x2c, 0xa0, 0xbe,
  0x18, 0x9d, 0xb0, 0xbc, 0xea, 0xe4, 0x97, 0xbe, 0x1a, 0x83, 0x43, 0xbe,
  0xf9, 0x99, 0x0b, 0xbd, 0x83, 0x4a, 0xf7, 0xbd, 0x3d, 0x59, 0x55, 0x3b,
  0xf4, 0xb7, 0xaf, 0x3e, 0x88, 0x03, 0x49, 0x3d, 0x24, 0x55, 0x39, 0x3e,
  0x88, 0x7f, 0xb7, 0x3d, 0x88, 0xbe, 0x08, 0xbd, 0x1f, 0x8c, 0x40, 0xbe,
  0x86, 0x6c, 0x90, 0x3e, 0xec, 0xae, 0x35, 0x3e, 0xf8, 0x8e, 0xc1, 0x3d,
  0x48, 0x77, 0x08, 0x3e, 0x0c, 0x32, 0x62, 0x3e, 0x01, 0x6b, 0x9e, 0xbe,
  0x90, 0xa4, 0x54, 0xbe, 0x72, 0xe3, 0x08, 0x3e, 0x8a, 0x93, 0x5e, 0xbe,
  0x02, 0xdb, 0x9d, 0x3e, 0xb4, 0xb2, 0x3f, 0x3e, 0x0a, 0xdf, 0x55, 0xbe,
  0xf0, 0x0c, 0x14, 0x3d, 0x4c, 0x55, 0x9f, 0xbd, 0x66, 0x7d, 0xf3, 0xbd,
  0x40, 0x64, 0x85, 0x3c, 0x22, 0x46, 0x1e, 0x3e, 0xcc, 0x17, 0xd8, 0xbd,
  0x5f, 0x82, 0x1e, 0xbe, 0x94, 0x24, 0x41, 0x3e, 0xce, 0xf7, 0x8a, 0x3e,
  0x92, 0x48, 0x1f, 0x3e, 0xd8, 0x88, 0x28, 0xbd, 0x40, 0x41, 0xab, 0x3d,
  0xf6, 0xed, 0x17, 0xbe, 0xbb, 0x4a, 0x83, 0x3e, 0x89, 0x6f, 0xa5, 0xbe,
  0xa2, 0x04, 0xd0, 0x3a, 0xf2, 0x93, 0x61, 0x3e, 0x38, 0x2a, 0x15, 0xbd,
  0xd7, 0xb4, 0x72, 0xbe, 0x2a, 0x62, 0xa0, 0xbe, 0xad, 0x8c, 0x94, 0x3e,
  0x46, 0xbb, 0x50, 0xbe, 0x8f, 0xca, 0x68, 0xbd, 0x34, 0xbb, 0xbb, 0xbd,
  0x5b, 0xde, 0x59, 0x3d, 0xce, 0xdc, 0x2a, 0xbe, 0x59, 0x78, 0x90, 0xbe,
  0xb8, 0x1c, 0x83, 0x3e, 0xed, 0x0b, 0x87, 0x3d, 0xb2, 0x76, 0xd9, 0x3d,
  0x1b, 0x0f, 0x2a, 0xbe, 0x66, 0x10, 0x1e, 0x3e, 0x09, 0x42, 0x1c, 0xbe,
  0x79, 0x77, 0x8e, 0xbe, 0x4b, 0x19, 0x85, 0xbe, 0x49, 0xa8, 0x15, 0x3e,
  0x95, 0x9a, 0xa2, 0xbb, 0x99, 0x77, 0x84, 0x3e, 0xc1, 0x9b, 0x8a, 0xbd,
  0x2f, 0x75, 0x27, 0xbe, 0x7e, 0x51, 0x8e, 0xbe, 0x33, 0xa2, 0x95, 0x3e,
  0x17, 0xd1, 0x90, 0xbe, 0x66, 0xae, 0xd9, 0x3d, 0xca, 0xb5, 0x44, 0x39,
  0x4e, 0x3c, 0x0c, 0xbe, 0x58, 0xc8, 0x6a, 0xbe, 0xb1, 0xe8, 0x8e, 0xbe,
  0x35, 0x95, 0x15, 0x3e, 0x13, 0x49, 0x0c, 0xbe, 0x3d, 0x77, 0xee, 0xbb,
  0xb6, 0x0d, 0x28, 0xbe, 0xcc, 0x24, 0xed, 0x3d, 0x69, 0x4e, 0x89, 0x3d,
  0x01, 0xbe, 0xa5, 0xbe, 0xce, 0xf8, 0xe4, 0xbd, 0xbf, 0x07, 0xc0, 0x3d,
  0x25, 0xd6, 0xb3, 0xbe, 0x01, 0x5d, 0x38, 0xbd, 0x90, 0xcf, 0xb1, 0xbe,
  0xba, 0xa8, 0x30, 0x3e, 0x9e, 0x90, 0xf8, 0x3c, 0xe1, 0x4b, 0x5f, 0xbe,
  0x63, 0x2a, 0xad, 0xbe, 0x68, 0x37, 0xf5, 0x3b, 0x68, 0x76, 0xd0, 0xbd,
  0x93, 0xb8, 0x01, 0x3e, 0x30, 0x5c, 0x08, 0xbd, 0x48, 0x44, 0x10, 0x3c,
  0x3c, 0x0a, 0x01, 0x3e, 0x2d, 0x98, 0x98, 0x3e, 0x7a, 0xdd, 0xce, 0x3d,
  0xbd, 0xca, 0xd9, 0xbd, 0x14, 0x4b, 0x6a, 0xbe, 0xa0, 0x0e, 0xfb, 0xbc,
  0xae, 0xfd, 0xc0, 0xbd, 0x1a, 0x3e, 0x80, 0xbe, 0xd2, 0xd3, 0x6a, 0xbe,
  0x7c, 0xbf, 0x6e, 0x3e, 0x40, 0x7d, 0xd6, 0x3d, 0x14, 0x7f, 0x38, 0x3e,
  0xb4, 0x1c, 0x37, 0x3e, 0x9c, 0xbf, 0x8f, 0x3d, 0xa7, 0xe3, 0x28, 0xbe,
  0x56, 0x11, 0x97, 0x3e, 0x00, 0x8e, 0x3d, 0x3b, 0x5e, 0xee, 0x04, 0x3e,
  0x40, 0xde, 0x4a, 0xbe, 0x33, 0xf1, 0x42, 0xbe, 0x36, 0x18, 0x9b, 0x3e,
  0x58, 0x15, 0x5f, 0x3e, 0xc0, 0xa1, 0xf9, 0x3b, 0xd0, 0xae, 0x84, 0x3d,
  0xec, 0xdb, 0x9e, 0x3e, 0xe8, 0x05, 0x2e, 0x3d, 0xcc, 0x43, 0xca, 0xbd,
  0xf3, 0xb9, 0x93, 0xbe, 0x70, 0x08, 0xb2, 0x3c, 0xba, 0xeb, 0x99, 0x3e,
  0x68, 0x91, 0x6b, 0xbe, 0xa4, 0x6e, 0xd4, 0xbd, 0x3c, 0x65, 0xe7, 0xbd,
  0xe0, 0x6e, 0x52, 0x3e, 0xe3, 0x0f, 0xb6, 0xbd, 0xf5, 0x1b, 0xf4, 0xbd,
  0x7b, 0x0b, 0x9b, 0xbe, 0xac, 0xf1, 0x2e, 0x3d, 0xbe, 0xd8, 0x12, 0x3c,
  0xd2, 0x4c, 0x9a, 0xbe, 0xfe, 0x36, 0x54, 0xbd, 0xb0, 0x5b, 0x70, 0xbe,
  0x55, 0xbe, 0x44, 0xbe, 0xc1, 0x77, 0x09, 0xbd, 0x4b, 0x9c, 0xfa, 0x3c,
  0xf9, 0x2d, 0x92, 0x3e, 0x29, 0x6a, 0x6d, 0xbe, 0x7f, 0xe0, 0xfa, 0x3d,
  0x3a, 0x41, 0x5c, 0xbe, 0xbf, 0x89, 0x8e, 0xbe, 0xe3, 0x2e, 0x8a, 0xbe,
  0xcc, 0x66, 0x82, 0x3e, 0x58, 0xa7, 0x88, 0x3d, 0x5b, 0xcb, 0xcc, 0x3c,
  0x7e, 0x73, 0x94, 0x3d, 0x58, 0x7e, 0x36, 0xbe, 0x32, 0x86, 0x0e, 0xbd,
  0x19, 0xa2, 0x92, 0xbe, 0x81, 0x11, 0x4d, 0x3e, 0xfd, 0x2b, 0x76, 0xbe,
  0x6a, 0x55, 0x4b, 0x3c, 0x99, 0x70, 0xe1, 0xbc, 0x89, 0x24, 0x8b, 0xbe,
  0x5b, 0x15, 0x46, 0x3e, 0x1b, 0xa2, 0x9b, 0xbe, 0x52, 0x47, 0xa4, 0xbe,
  0x1c, 0xaa, 0x2f, 0x3e, 0x8e, 0xef, 0xaa, 0xbd, 0xc2, 0x6a, 0xe4, 0xbd,
  0x30, 0x94, 0x67, 0xbd, 0x20, 0x20, 0x95, 0x3c, 0x03, 0x8c, 0x51, 0xbe,
  0xa2, 0x0d, 0x80, 0x3e, 0x40, 0x43, 0xdf, 0xbb, 0x54, 0xe2, 0x99, 0xbe,
  0xac, 0x66, 0x58, 0x3e, 0x01, 0xc5, 0x6d, 0xbe, 0x90, 0x79, 0x55, 0xbd,
  0x2c, 0x9a, 0x4d, 0xbe, 0xbc, 0xc9, 0x79, 0x3e, 0x14, 0x32, 0x1c, 0x3e,
  0x36, 0xc4, 0x95, 0xbe, 0xd0, 0xe2, 0x23, 0xbd, 0x10, 0x5f, 0x7b, 0xbd,
  0x3c, 0x93, 0xa3, 0x3e, 0xb2, 0x16, 0x3e, 0xbe, 0xd0, 0xcb, 0x51, 0x3d,
  0x68, 0xaf, 0xd0, 0x3d, 0x3a, 0x38, 0x80, 0xbe, 0xb8, 0xae, 0x8a, 0x3e,
  0x50, 0x8c, 0x80, 0x3e, 0xc0, 0xc2, 0xfe, 0x3c, 0x48, 0x1a, 0x7b, 0xbd,
  0xd9, 0x9b, 0x5c, 0xbe, 0xdf, 0x66, 0x2c, 0x3e, 0xe8, 0xe0, 0x46, 0x3e,
  0xf6, 0x69, 0x81, 0x3e, 0x0a, 0x93, 0x26, 0xbe, 0xf7, 0x05, 0x4a, 0x3e,
  0xed, 0x67, 0x74, 0xbe, 0x12, 0x3f, 0x15, 0x3e, 0x3e, 0x82, 0xe4, 0x3d,
  0xab, 0x9d, 0x6a, 0xbe, 0x83, 0x64, 0xf5, 0xbd, 0xa5, 0x48, 0x20, 0x3e,
  0xf2, 0xad, 0xa9, 0xbe, 0xf9, 0x96, 0x5c, 0x3d, 0x98, 0x53, 0x90, 0x3e,
  0x38, 0x7b, 0xa6, 0x3c, 0x52, 0xdb, 0xe5, 0x3d, 0x1b, 0x9f, 0x90, 0x3d,
  0xe9, 0xf8, 0x05, 0xbe, 0x12, 0xe5, 0x19, 0x3e, 0xb4, 0x13, 0xfc, 0x3d,
  0x2f, 0x3c, 0x34, 0x3c, 0x3d, 0x3a, 0x44, 0x3e, 0x3f, 0x7a, 0x83, 0xbe,
  0x18, 0xe4, 0x03, 0xbe, 0xa2, 0x5b, 0x5c, 0xbe, 0x78, 0x73, 0x26, 0xba,
  0x72, 0x52, 0xfc, 0x3c, 0xc1, 0x20, 0x4c, 0x3e, 0xe2, 0xa2, 0x8d, 0xbe,
  0x6e, 0x38, 0xda, 0xbd, 0xd0, 0x00, 0x43, 0xbe, 0xd5, 0x51, 0x55, 0x3e,
  0x56, 0xbf, 0x4e, 0xbe, 0xe0, 0x5d, 0x09, 0xbe, 0xbf, 0x3e, 0x98, 0xbe,
  0x3b, 0xb6, 0x63, 0xbe, 0xe1, 0x0d, 0x00, 0xbe, 0xfc, 0x29, 0x28, 0x3e,
  0xa7, 0x88, 0x94, 0x3e, 0x89, 0x38, 0x65, 0xbe, 0xb7, 0xe4, 0x91, 0x3e,
  0xc6, 0x68, 0xa4, 0xbe, 0xac, 0x3a, 0xa4, 0x3e, 0xe9, 0xea, 0x90, 0x3e,
  0xf0, 0xcf, 0x26, 0x3e, 0x28, 0x5f, 0xa4, 0x3e, 0x59, 0x4a, 0xfc, 0x3d,
  0x32, 0x83, 0x1f, 0x3e, 0xb7, 0x41, 0x86, 0x3e, 0x09, 0xc1, 0xa2, 0x3e,
  0x95, 0xef, 0xbf, 0xbd, 0xc9, 0xc0, 0x95, 0xbe, 0xae, 0xdb, 0x80, 0x3e,
  0x4d, 0x9c, 0x99, 0xbe, 0x83, 0xcf, 0x78, 0x3e, 0x59, 0x06, 0x98, 0xbe,
  0xf7, 0xbf, 0xdd, 0x3d, 0x91, 0x15, 0x19, 0xbe, 0x30, 0xb4, 0xa6, 0xbe,
  0x01, 0xff, 0x08, 0xbe, 0xc0, 0xfb, 0x8b, 0x3e, 0x40, 0x2e, 0x35, 0x3e,
  0x05, 0x94, 0x51, 0xbe, 0xa4, 0x4b, 0x3b, 0xbe, 0xbe, 0xc1, 0x55, 0xbe,
  0x5a, 0x5c, 0x9e, 0x3e, 0x80, 0xc8, 0xee, 0xbb, 0x3c, 0x05, 0x93, 0xbd,
  0x6a, 0x11, 0x80, 0x3e, 0x58, 0x86, 0xef, 0x3d, 0xb8, 0x24, 0x70, 0xbd,
  0xa0, 0xc7, 0x56, 0x3e, 0x78, 0x4f, 0x24, 0xbd, 0x99, 0x02, 0x11, 0xbe,
  0x30, 0x31, 0x6a, 0x3d, 0x01, 0x23, 0x86, 0xbe, 0xcb, 0x37, 0x31, 0xbe,
  0x64, 0xbd, 0x45, 0x3e, 0x00, 0xcd, 0x75, 0x3c, 0x15, 0x5e, 0x51, 0xbe,
  0xf6, 0x92, 0xfe, 0xbd, 0x0e, 0x5c, 0x89, 0xbe, 0xec, 0xa6, 0x9f, 0xbd,
  0xd8, 0x6a, 0x2c, 0x3d, 0x02, 0xa5, 0x3e, 0xbe, 0x5c, 0x3f, 0x84, 0x3e,
  0x60, 0x1d, 0x0b, 0xbc, 0x38, 0x34, 0x28, 0xbd, 0xb0, 0x7f, 0xfe, 0xbc,
  0x80, 0x74, 0xbd, 0xbc, 0x91, 0x98, 0x5c, 0x3e, 0x0f, 0x8a, 0x43, 0xbe,
  0x22, 0x70, 0x8b, 0x3e, 0xde, 0x1d, 0x7e, 0x3e, 0xab, 0x4c, 0x17, 0x3d,
  0xea, 0x9c, 0xa6, 0x3c, 0x1c, 0x1d, 0x8b, 0xbe, 0x91, 0xc7, 0xa8, 0x3e,
  0x6e, 0x44, 0x42, 0x3e, 0x09, 0xad, 0x81, 0x3e, 0x86, 0x5c, 0x6a, 0xbe,
  0xb1, 0x30, 0x6c, 0xbe, 0x67, 0x67, 0x97, 0xbe, 0x86, 0xd3, 0x88, 0xbe,
  0x18, 0x35, 0x11, 0x3e, 0x68, 0x7c, 0x49, 0xbe, 0x26, 0x29, 0x6e, 0x3e,
  0x87, 0xd8, 0x4a, 0xbe, 0x5f, 0x30, 0xc2, 0xbd, 0x0e, 0xf0, 0x8f, 0xbe,
  0xb9, 0x4d, 0x37, 0xbe, 0xae, 0x37, 0x11, 0x3e, 0x2a, 0x66, 0x9b, 0x3e,
  0xe7, 0xa5, 0x47, 0xbe, 0xa2, 0xd4, 0x9a, 0x3d, 0xbf, 0x41, 0x97, 0x3e,
  0xff, 0x29, 0xfc, 0xbc, 0x72, 0x80, 0xa3, 0xbe, 0xbb, 0x7c, 0x28, 0x3e,
  0xd6, 0xcb, 0x9c, 0x3e, 0x5b, 0x27, 0xaf, 0x3d, 0x71, 0xa1, 0xb1, 0xbd,
  0x12, 0x00, 0x98, 0x3e, 0x45, 0x1e, 0xc8, 0x3d, 0xac, 0x63, 0x66, 0x3e,
  0x78, 0x97, 0x12, 0x3d, 0x5a, 0x08, 0x0a, 0xbe, 0x64, 0x43, 0x91, 0x3e,
  0xe6, 0xfd, 0x5a, 0xbe, 0xf9, 0x0b, 0x45, 0xbe, 0xdd, 0x6f, 0x8f, 0x3e,
  0x21, 0x10, 0x37, 0x3d, 0x5f, 0xe6, 0x10, 0x3d, 0x9b, 0x3c, 0xd7, 0xbd,
  0x60, 0x82, 0x16, 0xbd, 0x75, 0x4d, 0x6b, 0xbe, 0x7d, 0xb2, 0x85, 0x3c,
  0x43, 0x8f, 0x1c, 0xbe, 0xa5, 0x07, 0x92, 0x3b, 0x6a, 0x6c, 0x22, 0xbd,
  0x60, 0xfe, 0xa8, 0x3d, 0x2f, 0xcb, 0x9f, 0x3e, 0x68, 0x28, 0x94, 0xbe,
  0x92, 0x8e, 0x1b, 0xbd, 0x56, 0x07, 0xfc, 0xbc, 0x90, 0x29, 0xa7, 0xbc,
  0xbe, 0xb9, 0xfd, 0x3d, 0x28, 0xe1, 0x38, 0x3e, 0x0a, 0x84, 0x85, 0x3e,
  0x5e, 0x80, 0xb5, 0xbd, 0x84, 0x0a, 0xec, 0xbd, 0xa2, 0xb1, 0x1c, 0x3e,
  0x64, 0x35, 0x70, 0x3e, 0x80, 0xa1, 0x2f, 0xbd, 0x14, 0x7b, 0x00, 0xbe,
  0x3a, 0x11, 0x9e, 0x3e, 0x80, 0xd5, 0x83, 0x3b, 0x44, 0x1c, 0x95, 0x3e,
  0xac, 0xd7, 0xb1, 0x3d, 0xe6, 0x75, 0xe6, 0xbd, 0x50, 0xd1, 0xc8, 0xbc,
  0x34, 0xa4, 0xba, 0xbd, 0x2c, 0x89, 0x15, 0x3e, 0x40, 0xd6, 0xda, 0xbb,
  0x2c, 0xb1, 0x92, 0x3d, 0xec, 0xca, 0xe5, 0x3d, 0x80, 0x2f, 0xfe, 0xbb,
  0xd0, 0x87, 0x4b, 0xbe, 0x0a, 0x4f, 0x95, 0xbe, 0x42, 0xa0, 0x52, 0xbe,
  0x82, 0x9f, 0x8f, 0x3e, 0x6c, 0xb7, 0x42, 0xbe, 0x9e, 0x00, 0x20, 0x3e,
  0x20, 0xa3, 0x81, 0x3d, 0xc0, 0x78, 0x11, 0x3c, 0x00, 0xd9, 0x5c, 0x3e,
  0x25, 0xde, 0x08, 0xbe, 0x92, 0x7a, 0xb9, 0xbd, 0x48, 0x3d, 0xe5, 0x3d,
  0xec, 0xbe, 0x8e, 0x3e, 0xae, 0x26, 0x0d, 0x3e, 0x28, 0x86, 0x27, 0xbe,
  0x0a, 0xd0, 0xbf, 0xbd, 0xe2, 0x61, 0x11, 0xbe, 0x63, 0xe9, 0xc5, 0xbc,
  0xb9, 0x8c, 0x0d, 0xbd, 0x48, 0xfc, 0x3a, 0x3e, 0x5b, 0xdc, 0x99, 0x3e,
  0x46, 0x6e, 0xf8, 0xbc, 0xa5, 0x60, 0x5e, 0x3e, 0x39, 0x9d, 0xa9, 0x3e,
  0x30, 0xe5, 0x30, 0xbe, 0xa0, 0x54, 0x4b, 0xbc, 0xbb, 0xa7, 0x35, 0xbe,
  0xd3, 0x39, 0x1f, 0x3d, 0xd0, 0xda, 0x76, 0x3d, 0xdb, 0xbe, 0x40, 0x3e,
  0x81, 0xa4, 0x39, 0xbd, 0xa4, 0xb7, 0xab, 0x3d, 0x9c, 0x55, 0x93, 0xbe,
  0xd3, 0xfe, 0x8f, 0xbe, 0xbb, 0x0f, 0x82, 0xbe, 0x45, 0x04, 0x87, 0xbe,
  0xf2, 0x24, 0x66, 0xbe, 0x55, 0xa9, 0x2e, 0x3e, 0x0b, 0x6c, 0x6d, 0x3b,
  0x58, 0x4d, 0x4c, 0x3e, 0xc5, 0x4f, 0x8b, 0x3e, 0xdc, 0x4a, 0xbf, 0xbd,
  0x5b, 0xe1, 0xd6, 0x3d, 0x06, 0x6e, 0x58, 0xbe, 0x78, 0xb1, 0x31, 0x3d,
  0x04, 0xd9, 0xf6, 0x3d, 0x10, 0x7d, 0xd7, 0xbc, 0x41, 0x2a, 0x01, 0xbe,
  0xa0, 0x9a, 0xf0, 0xbd, 0x80, 0xe5, 0x7a, 0xbd, 0x84, 0x55, 0xc8, 0x3d,
  0x94, 0x50, 0x91, 0x3e, 0xb0, 0xb0, 0x6a, 0xbe, 0x4d, 0x76, 0x7b, 0xbe,
  0xce, 0x35, 0x8d, 0x3e, 0x28, 0xa7, 0xa9, 0x3d, 0xba, 0xb5, 0x75, 0xbe,
  0xe4, 0xd9, 0x48, 0x3e, 0xf8, 0xb2, 0x28, 0xbd, 0x93, 0xc7, 0x44, 0xbe,
  0xf5, 0xcb, 0x08, 0xbe, 0x80, 0xcd, 0x15, 0x3e, 0xd4, 0x3a, 0x44, 0x3e,
  0xc0, 0xed, 0xdc, 0xbc, 0x16, 0xa0, 0x8b, 0x3e, 0xda, 0xa9, 0xbc, 0xbd,
  0x04, 0xb5, 0x64, 0x3e, 0x38, 0x1b, 0xcd, 0x3d, 0xf8, 0x16, 0x74, 0xbe,
  0x47, 0x46, 0x3a, 0xbe, 0x0e, 0xbb, 0x36, 0xbe, 0xe0, 0xe8, 0x31, 0x3e,
  0x6d, 0x82, 0x3f, 0xbe, 0x3e, 0x7a, 0x91, 0x3e, 0x98, 0x4c, 0x9f, 0xbe,
  0x36, 0x52, 0x73, 0xbe, 0xdf, 0x44, 0x82, 0xbe, 0xc4, 0xb2, 0x81, 0x3e,
  0xc9, 0x10, 0x8e, 0xbd, 0x02, 0xf1, 0x34, 0x3e, 0xc7, 0xca, 0x79, 0xbd,
  0x23, 0x15, 0x43, 0x3d, 0xcb, 0xd5, 0x70, 0xbe, 0xe0, 0x4e, 0x2a, 0x3e,
  0xe2, 0x6f, 0x8e, 0xbd, 0x24, 0x55, 0x27, 0xbe, 0xce, 0xca, 0xf8, 0xbc,
  0xd2, 0x4b, 0x03, 0xbd, 0xae, 0x7d, 0x69, 0xbe, 0xcc, 0xf1, 0x9b, 0x3e,
  0xe4, 0xed, 0xaf, 0xbe, 0x11, 0x87, 0x55, 0xbe, 0x6c, 0x56, 0x40, 0xbe,
  0x7f, 0x52, 0x19, 0x3d, 0x87, 0xfe, 0x37, 0x3e, 0xe0, 0x27, 0x44, 0x3e,
  0xe4, 0xdf, 0xcf, 0xbe, 0x6f, 0xee, 0x75, 0x3d, 0x10, 0xb5, 0x09, 0xbe,
  0x8f, 0xd2, 0x1c, 0xbd, 0xb4, 0x79, 0xa8, 0x3e, 0x15, 0x75, 0x14, 0xbd,
  0xf2, 0x9f, 0x76, 0xbd, 0x1b, 0xde, 0x85, 0xbd, 0xee, 0xa0, 0x5b, 0x3e,
  0xe5, 0x23, 0x83, 0x3e, 0x9d, 0xf4, 0x9f, 0x3e, 0xbe, 0x84, 0x2b, 0x3e,
  0xa5, 0xf4, 0xa3, 0xbe, 0xc6, 0x7a, 0x75, 0x3e, 0x83, 0xa5, 0x72, 0x3e,
  0x50, 0x81, 0x69, 0x3e, 0x54, 0x94, 0xac, 0x3c, 0xc3, 0x1a, 0x68, 0xbd,
  0x3d, 0xec, 0x92, 0xbe, 0xb2, 0x4f, 0xc3, 0xbd, 0x46, 0xdd, 0xa7, 0x3e,
  0xc9, 0x19, 0xa0, 0x3e, 0x07, 0xc0, 0x82, 0xbc, 0x3d, 0x98, 0x68, 0xbe,
  0xd6, 0x2a, 0x10, 0x3d, 0x78, 0xe5, 0xfc, 0xbd, 0x59, 0x8b, 0x19, 0xbe,
  0xff, 0xc4, 0x8a, 0xbe, 0x67, 0xc8, 0x92, 0xbd, 0xec, 0x97, 0x89, 0xbc,
  0x45, 0x63, 0x11, 0x3e, 0x2b, 0x1d, 0x43, 0xbe, 0xf3, 0x9e, 0x96, 0x3c,
  0x7c, 0x3a, 0x10, 0xbe, 0x1c, 0x1e, 0x24, 0x3e, 0xe7, 0xad, 0x83, 0xbe,
  0xb4, 0x28, 0x35, 0x3e, 0xe0, 0xe8, 0x97, 0x3e, 0x96, 0x9b, 0x53, 0xbe,
  0x40, 0x9f, 0x91, 0x3e, 0xf8, 0xc8, 0x5f, 0x3d, 0x1c, 0x9d, 0xee, 0x3d,
  0x34, 0x3b, 0x9e, 0x3e, 0xd2, 0xf3, 0x1f, 0x3e, 0xc0, 0xcb, 0x32, 0x3c,
  0xa8, 0x7e, 0x6c, 0x3e, 0xf8, 0x7f, 0x90, 0x3d, 0x21, 0x13, 0x8a, 0xbe,
  0x12, 0xb7, 0x69, 0xbe, 0x04, 0x7f, 0x28, 0xbe, 0xcc, 0xde, 0x3c, 0x3e,
  0x04, 0xee, 0xa6, 0x3e, 0xa3, 0x8b, 0x93, 0xbe, 0x54, 0xdb, 0xb5, 0xbd,
  0x60, 0x24, 0x4a, 0xbd, 0x8e, 0x94, 0x81, 0x3e, 0xa4, 0x7e, 0x31, 0xbe,
  0xa2, 0xab, 0x90, 0x3e, 0x18, 0x87, 0x70, 0x3e, 0xa0, 0x41, 0x39, 0x3d,
  0x6e, 0x0f, 0x9a, 0x3e, 0xd6, 0x24, 0x0b, 0xbe, 0xdd, 0xf9, 0x09, 0xbe,
  0x32, 0xd7, 0x94, 0xbe, 0xd4, 0x8c, 0xa8, 0xbe, 0x6a, 0x0a, 0xa8, 0x3e,
  0xd8, 0x5d, 0x5d, 0xbd, 0x34, 0x6a, 0x88, 0xbe, 0x7d, 0xec, 0x4f, 0xbe,
  0xf4, 0x10, 0x5e, 0x3e, 0x5b, 0x5a, 0xa2, 0xbe, 0xec, 0xa6, 0xa9, 0x3d,
  0x3c, 0xd5, 0x99, 0xbd, 0x10, 0x74, 0x0e, 0xbd, 0x34, 0x6d, 0x57, 0xbe,
  0x6b, 0x24, 0x04, 0xbe, 0x04, 0xfe, 0x83, 0xbd, 0x38, 0xf1, 0x69, 0x3e,
  0xec, 0x7f, 0x1d, 0x3e, 0x58, 0xe0, 0x57, 0x3e, 0x0c, 0xe3, 0xf3, 0xbd,
  0x98, 0xc7, 0x35, 0x3e, 0xa6, 0x08, 0xb8, 0xbd, 0x7e, 0x6f, 0x9f, 0x3e,
  0x91, 0x98, 0x16, 0xbe, 0xcc, 0xee, 0xa2, 0x3e, 0x34, 0xd8, 0x70, 0x3e,
  0xae, 0x98, 0xa8, 0x3e, 0x5d, 0x4e, 0x20, 0xbe, 0x2a, 0x38, 0x5c, 0xbe,
  0xec, 0x60, 0x0c, 0x3e, 0x46, 0x8e, 0xa4, 0x3e, 0xe8, 0x57, 0x75, 0x3e,
  0x00, 0xf3, 0x28, 0x3c, 0xc0, 0x31, 0x54, 0x3e, 0xa6, 0xda, 0x91, 0x3e,
  0xcc, 0x55, 0xaf, 0x3d, 0xfc, 0xf9, 0xb3, 0xbd, 0xa3, 0xfe, 0x86, 0x3e,
  0xb1, 0x09, 0x20, 0x3e, 0x9d, 0x4e, 0x66, 0x3e, 0xba, 0xce, 0x93, 0xbd,
  0x7b, 0x02, 0xb3, 0x3e, 0xc8, 0x3d, 0x97, 0xbe, 0x06, 0x16, 0x94, 0x3e,
  0x14, 0xcb, 0x48, 0xbe, 0xc9, 0xa2, 0x94, 0xbe, 0x56, 0x1c, 0x91, 0x3e,
  0xda, 0xe1, 0x71, 0x3d, 0x0c, 0x8e, 0x99, 0xbe, 0xe0, 0xc3, 0x32, 0xbd,
  0x8b, 0xea, 0xfa, 0x3b, 0x71, 0xa2, 0x02, 0x3e, 0x08, 0x6b, 0x95, 0xbc,
  0x88, 0x8f, 0x55, 0xbd, 0xa9, 0x79, 0x8a, 0xbe, 0xfa, 0x0c, 0x8f, 0xbe,
  0xf5, 0xc9, 0x88, 0xbd, 0x79, 0x16, 0x51, 0x3e, 0xe2, 0xd5, 0x8a, 0xbe,
  0x82, 0x23, 0x84, 0xbe, 0x30, 0x05, 0x9d, 0x3d, 0xfa, 0x74, 0x9f, 0x3e,
  0xc3, 0xde, 0x1e, 0x3d, 0xcb, 0x86, 0x45, 0xbd, 0x89, 0x00, 0xc1, 0x3a,
  0x55, 0x21, 0xad, 0xbd, 0xd8, 0x0b, 0x7e, 0x3d, 0x62, 0xb4, 0x6b, 0x3d,
  0x1a, 0xfd, 0xc0, 0x3d, 0x9e, 0xc7, 0x4b, 0x3d, 0x01, 0x9a, 0x5c, 0x3e,
  0xa0, 0x1d, 0x6b, 0xbe, 0xe6, 0xb7, 0x8b, 0x3d, 0xb5, 0x55, 0x4b, 0xbe,
  0x13, 0x65, 0x3b, 0xbe, 0x33, 0xbf, 0x88, 0xbd, 0xb8, 0xfb, 0xfe, 0x3c,
  0x84, 0x51, 0x83, 0xbe, 0xa5, 0x28, 0x0e, 0x3e, 0x9c, 0x09, 0x38, 0x3e,
  0x6a, 0x0a, 0x6f, 0xbe, 0xfb, 0x4b, 0x19, 0x3e, 0x96, 0xae, 0xef, 0xbd,
  0xdc, 0x57, 0x8c, 0x3e, 0x92, 0x42, 0x03, 0x3d, 0x60, 0x8d, 0x45, 0x3e,
  0x22, 0x80, 0x61, 0x3e, 0xd4, 0x9c, 0x6e, 0x3e, 0x8e, 0x5b, 0x56, 0x3d,
  0x9a, 0x52, 0xdb, 0xbd, 0xee, 0x00, 0x65, 0x3e, 0x1b, 0x22, 0x72, 0xbd,
  0x92, 0xde, 0xed, 0x3d, 0xeb, 0x28, 0x7f, 0x3e, 0x84, 0x1c, 0x31, 0xbe,
  0x01, 0xe3, 0x68, 0xbd, 0xc0, 0xf0, 0xff, 0xff, 0xc4, 0xf0, 0xff, 0xff,
  0x8e, 0xff, 0xff, 0xff, 0x04, 0x00, 0x00, 0x00, 0x64, 0x00, 0x00, 0x00,
  0x38, 0x12, 0xcf, 0x3c, 0x1d, 0x9f, 0x0b, 0x3d, 0x77, 0x09, 0x80, 0x3a,
  0xde, 0x91, 0x56, 0xbc, 0x4a, 0x84, 0x06, 0xbd, 0x00, 0x00, 0x00, 0x00,
  0xf0, 0xbd, 0x95, 0x3b, 0x66, 0xfb, 0xaf, 0x3d, 0x00, 0x00, 0x00, 0x00,
  0x1e, 0x82, 0x22, 0xba, 0x00, 0x00, 0x00, 0x00, 0x72, 0xc9, 0x77, 0x3d,
  0x0b, 0x26, 0x3b, 0x3c, 0x00, 0x00, 0x00, 0x00, 0x1f, 0x62, 0x8e, 0xbc,
  0x49, 0xef, 0x16, 0xbd, 0x00, 0x00, 0x00, 0x00, 0x7a, 0x4c, 0xac, 0xbc,
  0x00, 0x00, 0x00, 0x00, 0x7c, 0x56, 0xa6, 0x3d, 0xbb, 0x96, 0xbe, 0xba,
  0x00, 0x00, 0x00, 0x00, 0x00, 0x00, 0x00, 0x00, 0x54, 0x7f, 0x44, 0xbd,
  0x26, 0x69, 0x35, 0xbd, 0x00, 0x00, 0x06, 0x00, 0x08, 0x00, 0x04, 0x00,
  0x06, 0x00, 0x00, 0x00, 0x04, 0x00, 0x00, 0x00, 0xb8, 0x0b, 0x00, 0x00,
  0xf4, 0xe6, 0x5a, 0xbc, 0x16, 0x1f, 0xae, 0xbd, 0x6f, 0xe7, 0x0b, 0xbe,
  0xe7, 0x64, 0xbe, 0x3d, 0x19, 0x25, 0x96, 0xbe, 0xd4, 0xe6, 0x8d, 0xbe,
  0x94, 0x2b, 0x5b, 0x3d, 0xbe, 0xc2, 0x98, 0x3e, 0xac, 0x18, 0x53, 0x3e,
  0xfd, 0x3b, 0x89, 0xbe, 0xb4, 0xce, 0x78, 0x3e, 0x82, 0x40, 0x3e, 0xbe,
  0xd5, 0x64, 0x84, 0xbe, 0x10, 0x11, 0x00, 0xbd, 0x2f, 0x84, 0x37, 0xbe,
  0x52, 0xa1, 0x8d, 0x3e, 0x22, 0x90, 0x86, 0x3e, 0x20, 0xc7, 0x0a, 0xbe,
  0x50, 0x34, 0x9f, 0x3e, 0x90, 0x08, 0xab, 0x3e, 0xb7, 0xe9, 0x39, 0xbd,
  0x24, 0x77, 0xec, 0x3d, 0xe2, 0x8a, 0x58, 0xbe, 0xdb, 0x8a, 0x6c, 0x3d,
  0xc4, 0x36, 0x7f, 0xbe, 0x66, 0xff, 0x40, 0x3e, 0xfc, 0xa5, 0x0f, 0xbc,
  0x51, 0x4f, 0x44, 0xbe, 0x09, 0x9f, 0x61, 0x3e, 0x4b, 0x3c, 0xac, 0xbe,
  0xd0, 0x62, 0xb5, 0xbd, 0xd5, 0xa8, 0x25, 0x3d, 0x8e, 0xb5, 0x37, 0x3e,
  0x90, 0xd1, 0x1c, 0xbd, 0x15, 0x60, 0x19, 0x3e, 0xe2, 0x6b, 0x87, 0x3e,
  0x4c, 0x4f, 0x60, 0xbe, 0x30, 0x36, 0x9b, 0xbe, 0xe5, 0xcc, 0x9c, 0xbe,
  0x11, 0xd5, 0x44, 0x3d, 0x63, 0xbc, 0x8b, 0x3e, 0x48, 0x9e, 0x88, 0xbd,
  0xe8, 0x4f, 0x1d, 0x3c, 0xe6, 0x54, 0x2d, 0x3e, 0xd5, 0x44, 0x42, 0xbe,
  0xcb, 0x34, 0xb6, 0x3d, 0x9c, 0x6b, 0x6f, 0x3e, 0x84, 0xb4, 0x07, 0x3e,
  0x3d, 0xa8, 0xac, 0x3d, 0x4b, 0xa7, 0x85, 0x3e, 0xa3, 0x12, 0x8d, 0xbe,
  0x1c, 0x70, 0x8c, 0xbe, 0xb2, 0xe3, 0x81, 0xbe, 0x23, 0xe1, 0xb1, 0xbd,
  0xcd, 0x21, 0x10, 0x3e, 0xfc, 0xfd, 0x6c, 0xbe, 0x7a, 0x87, 0x73, 0xbe,
  0xb9, 0x29, 0x86, 0x3d, 0x1a, 0xce, 0x24, 0x3e, 0x2b, 0xc8, 0x70, 0x3e,
  0xc7, 0xfd, 0x49, 0xbe, 0x60, 0xd4, 0x64, 0xbe, 0x5b, 0xb5, 0x85, 0xbd,
  0xb8, 0xe3, 0x70, 0xbd, 0x5f, 0x2b, 0x9b, 0x3d, 0xc5, 0xf9, 0x6c, 0x3d,
  0xc8, 0x68, 0x79, 0x3d, 0x54, 0xdd, 0x75, 0xbe, 0x58, 0x9a, 0x98, 0x3d,
  0x7f, 0xe1, 0xfa, 0x3d, 0xb7, 0x30, 0x9e, 0x3d, 0x84, 0x96, 0x7d, 0xbe,
  0x90, 0xa0, 0x0a, 0x3d, 0x04, 0x0c, 0x62, 0xbc, 0x04, 0xe7, 0x97, 0xbe,
  0x28, 0x2a, 0x34, 0xbd, 0xf0, 0xf7, 0x88, 0x3e, 0xb9, 0x1b, 0xd0, 0xbd,
  0x34, 0xb9, 0x5c, 0xbe, 0x2f, 0x9e, 0x0a, 0x3e, 0x18, 0x30, 0x83, 0x3d,
  0x95, 0x40, 0x03, 0x3d, 0x4a, 0x8d, 0x97, 0xbe, 0x5c, 0x6a, 0xc2, 0x3d,
  0x97, 0xa6, 0x90, 0xbe, 0xf8, 0x88, 0x50, 0x3d, 0xae, 0xce, 0x58, 0x3e,
  0x0d, 0x22, 0x8f, 0x3d, 0xae, 0x01, 0x93, 0x3e, 0x28, 0xdd, 0xa1, 0xbe,
  0xa3, 0x18, 0x73, 0x3d, 0x8c, 0xa2, 0x97, 0x3d, 0xe6, 0x5d, 0x8c, 0xbe,
  0x90, 0x09, 0x6d, 0xbe, 0xbd, 0x6c, 0x60, 0x3e, 0x76, 0xf1, 0xc1, 0xbd,
  0x36, 0x10, 0x88, 0xbe, 0x64, 0xf2, 0x8b, 0xbe, 0x68, 0xd3, 0x60, 0xbe,
  0x10, 0xa8, 0x94, 0xbe, 0xfd, 0x07, 0x24, 0x3e, 0x96, 0xc3, 0x00, 0xbe,
  0x34, 0xcf, 0x3a, 0x3e, 0x77, 0x07, 0x4a, 0xbe, 0x2a, 0xcd, 0x50, 0xbe,
  0xb2, 0x50, 0xdb, 0xbd, 0x8a, 0xa3, 0x07, 0xbe, 0xa2, 0xec, 0x38, 0x3e,
  0xf0, 0xfc, 0x4c, 0x3e, 0x19, 0x49, 0x95, 0x3d, 0xf1, 0x9e, 0x2e, 0xbe,
  0x22, 0xba, 0x80, 0xbe, 0x4d, 0x26, 0x22, 0x3e, 0x20, 0x9a, 0xd6, 0x3c,
  0x0d, 0x5a, 0x96, 0x3e, 0x21, 0xd4, 0xb0, 0xbd, 0x60, 0x7d, 0xb1, 0xbc,
  0xf2, 0x12, 0x11, 0x3e, 0xa4, 0xda, 0x39, 0x3e, 0x43, 0x4d, 0x8f, 0x3b,
  0x0b, 0x61, 0x8b, 0xbe, 0x50, 0xba, 0x38, 0xbd, 0x74, 0x80, 0xe8, 0xbd,
  0xd8, 0x46, 0x8a, 0x3e, 0xc2, 0xed, 0x8a, 0xbe, 0x4e, 0x69, 0x0f, 0x3e,
  0x28, 0x01, 0x2b, 0xbe, 0x51, 0x33, 0xbf, 0xbd, 0x84, 0x51, 0x2b, 0xbe,
  0xfa, 0xd7, 0x01, 0xbe, 0x90, 0x4c, 0xfe, 0xbd, 0x52, 0x4f, 0x71, 0x3e,
  0xd1, 0x15, 0x89, 0xbe, 0x28, 0x97, 0xa2, 0x3d, 0x0d, 0x36, 0xee, 0xbc,
  0x54, 0x81, 0x01, 0x3e, 0x4c, 0x2d, 0xb3, 0xbe, 0xb9, 0x17, 0x26, 0xbe,
  0x30, 0x25, 0x58, 0xbd, 0xa8, 0x79, 0x8f, 0x3e, 0xbf, 0x31, 0x47, 0x3e,
  0x1c, 0xd5, 0xae, 0x3d, 0x46, 0xbd, 0x13, 0xbe, 0x40, 0xcf, 0xf9, 0x3c,
  0x9e, 0xd1, 0x6f, 0xbe, 0x77, 0xf7, 0x01, 0x3e, 0x18, 0xa9, 0x8b, 0x3d,
  0xb2, 0x13, 0x62, 0xbe, 0xfc, 0x0f, 0x6d, 0x3e, 0xef, 0x63, 0xdd, 0xbd,
  0xdc, 0x90, 0x0b, 0x3e, 0x81, 0xd0, 0x21, 0x3e, 0x2a, 0x39, 0x8f, 0xbe,
  0xaa, 0xc7, 0x3f, 0x3e, 0x65, 0xba, 0x2f, 0xbd, 0x34, 0x00, 0xdc, 0xbd,
  0xd1, 0x41, 0x0e, 0x3e, 0xc3, 0x39, 0x0c, 0xbd, 0xc8, 0x7f, 0xac, 0xbd,
  0xce, 0x66, 0xef, 0x3d, 0x14, 0x8d, 0x42, 0x3e, 0x11, 0xb8, 0x05, 0xbe,
  0x61, 0xdc, 0x9e, 0xbe, 0x4c, 0xd7, 0x9a, 0x3e, 0xc2, 0x9c, 0x92, 0xbe,
  0x04, 0x44, 0xe2, 0x3c, 0xf8, 0x31, 0x96, 0xbe, 0xd1, 0x58, 0x3e, 0x3e,
  0x4e, 0x6f, 0xf2, 0xbd, 0xfb, 0x43, 0x81, 0xbe, 0x90, 0x53, 0x70, 0x3e,
  0xb8, 0x70, 0x54, 0x3e, 0x4a, 0x95, 0x3c, 0xbe, 0xac, 0x57, 0x86, 0xbe,
  0xd5, 0xed, 0x62, 0x3e, 0x4b, 0x39, 0x72, 0x3e, 0x3e, 0x7e, 0x52, 0x3e,
  0x24, 0x10, 0xe9, 0x3d, 0xa6, 0xd7, 0x2d, 0xbe, 0xfc, 0xec, 0x35, 0x3e,
  0x0e, 0x28, 0x89, 0x3e, 0xab, 0xc0, 0x80, 0xbe, 0x08, 0x19, 0xba, 0x3c,
  0xc4, 0x9c, 0x81, 0x3e, 0xb4, 0xbb, 0xf1, 0xbc, 0xd6, 0x0c, 0xa5, 0xbe,
  0x01, 0x1e, 0xe6, 0xbd, 0x18, 0x5c, 0x8f, 0xbd, 0xb8, 0x90, 0x8c, 0x3d,
  0x02, 0x67, 0x91, 0x3e, 0x25, 0x62, 0x01, 0xbe, 0xc0, 0xcb, 0x04, 0xbe,
  0xc9, 0xe2, 0x44, 0xbe, 0xbe, 0x17, 0x86, 0xbe, 0xea, 0x00, 0xbc, 0xbb,
  0xb0, 0x6f, 0x1e, 0x3d, 0x28, 0x7d, 0xee, 0x3d, 0xee, 0x1d, 0xd4, 0xbd,
  0x54, 0xb6, 0x90, 0xbd, 0x02, 0x5d, 0x8c, 0xbe, 0x97, 0x7e, 0x9b, 0xbe,
  0x36, 0xaf, 0x76, 0xbe, 0xe3, 0xbf, 0x72, 0xbe, 0x07, 0x19, 0x68, 0xbd,
  0x5a, 0x7b, 0x89, 0xbe, 0x82, 0x1b, 0x81, 0x3e, 0xed, 0x60, 0x91, 0x3d,
  0xe4, 0x72, 0x7e, 0xbe, 0x9c, 0xdd, 0x07, 0x3e, 0x46, 0x29, 0x19, 0x3c,
  0xb6, 0x3d, 0x89, 0xbe, 0x32, 0x64, 0x86, 0xbe, 0xe2, 0x7d, 0x2a, 0xbd,
  0xe3, 0x02, 0x8f, 0xbe, 0x40, 0x9d, 0x9a, 0xbe, 0x5a, 0xf8, 0x0c, 0x3e,
  0x18, 0x51, 0xe0, 0x3d, 0xa6, 0xf3, 0x46, 0xbd, 0x60, 0x5f, 0x0d, 0xbc,
  0x71, 0x6d, 0x1b, 0x3e, 0xeb, 0x92, 0x32, 0x3e, 0x50, 0x51, 0x77, 0x3e,
  0x88, 0xc0, 0x40, 0x3d, 0x79, 0xde, 0x93, 0x3e, 0x31, 0xac, 0xf3, 0x3d,
  0x48, 0x15, 0x4d, 0xbe, 0x13, 0x53, 0x1a, 0xbe, 0x3b, 0xa9, 0xbe, 0x3d,
  0x7b, 0x31, 0xae, 0x3e, 0x75, 0x06, 0xd5, 0x3d, 0xfa, 0x7d, 0x21, 0x3e,
  0x72, 0xd9, 0x48, 0x3e, 0x79, 0x4e, 0x26, 0x3e, 0x58, 0x7c, 0xce, 0x3d,
  0xff, 0xf4, 0x84, 0xbd, 0xe0, 0x88, 0x21, 0x3c, 0xba, 0xac, 0xff, 0x3d,
  0xa8, 0x3d, 0x76, 0x3e, 0xd4, 0x05, 0x78, 0x3e, 0x24, 0xd9, 0x1e, 0xbe,
  0xcc, 0xff, 0x9b, 0xbd, 0x4d, 0x7a, 0xa2, 0xbe, 0x41, 0x16, 0x0a, 0xbe,
  0x40, 0x3f, 0xe3, 0x3b, 0x5f, 0xd1, 0x46, 0xbd, 0xd0, 0x3a, 0x45, 0xbe,
  0xd8, 0x49, 0xa5, 0xbe, 0x00, 0x56, 0x06, 0x3c, 0x92, 0x8c, 0xb5, 0x3c,
  0x03, 0x40, 0x55, 0xbe, 0xc3, 0xf1, 0x43, 0xbe, 0x78, 0xbf, 0x4c, 0x3e,
  0x5c, 0xcb, 0x5e, 0xbd, 0xa6, 0xe5, 0x0a, 0xbe, 0x2e, 0x6b, 0x81, 0xbe,
  0x82, 0x02, 0x26, 0xbe, 0x1e, 0x14, 0xc8, 0xbc, 0x94, 0x5d, 0xe2, 0xbd,
  0x34, 0xf5, 0x9e, 0x3e, 0x97, 0x85, 0x2b, 0x3e, 0x40, 0xaa, 0x39, 0x3c,
  0x4e, 0x2c, 0xcc, 0x3d, 0x1d, 0x59, 0x40, 0x3e, 0x1c, 0x4c, 0x58, 0x3e,
  0x7b, 0x2b, 0x5d, 0xbd, 0xad, 0xe9, 0xbb, 0x3d, 0x30, 0xdd, 0x26, 0x3d,
  0xb2, 0xa7, 0xa7, 0xbd, 0xd0, 0x84, 0x16, 0x3e, 0x67, 0x7f, 0xd0, 0xbc,
  0x84, 0x1b, 0x4f, 0x3e, 0xf4, 0xb3, 0x22, 0x3e, 0x98, 0x1b, 0x4f, 0x3e,
  0x61, 0x3e, 0x75, 0xbe, 0xfd, 0x73, 0x72, 0xbe, 0xa1, 0x21, 0x93, 0xbd,
  0x39, 0x0f, 0xcd, 0x3d, 0x65, 0x84, 0xd1, 0xbc, 0x6c, 0x54, 0x52, 0xbe,
  0x1d, 0xb3, 0xd7, 0xbd, 0x14, 0xe9, 0x48, 0x3e, 0x43, 0x2b, 0xab, 0xbe,
  0xf6, 0x7e, 0x15, 0xbe, 0x60, 0x8e, 0x35, 0x3d, 0x19, 0x1e, 0x15, 0xbe,
  0x80, 0x7f, 0x65, 0x3c, 0x1b, 0xd9, 0x6d, 0xbe, 0xa7, 0xe6, 0x42, 0xbe,
  0x48, 0x11, 0x9b, 0xbd, 0xd7, 0x24, 0x9e, 0x3d, 0x31, 0xf6, 0x23, 0xbe,
  0x1c, 0x21, 0x3c, 0x3e, 0x9a, 0x00, 0x81, 0x3e, 0x70, 0xaa, 0x94, 0x3d,
  0x7e, 0xaa, 0x35, 0xbe, 0x32, 0xf7, 0x9d, 0xbd, 0xb0, 0x36, 0x8d, 0x3d,
  0x0c, 0x4d, 0xba, 0x3d, 0x0f, 0x42, 0x4b, 0xbc, 0xb3, 0x5c, 0x41, 0x3e,
  0xdc, 0x23, 0x87, 0x3e, 0xae, 0x4b, 0xb3, 0xbc, 0xa1, 0x88, 0x4e, 0x3e,
  0x07, 0xb8, 0x2a, 0x3e, 0xce, 0x0b, 0x8c, 0xbc, 0x08, 0xa1, 0x73, 0xbe,
  0x17, 0x85, 0x09, 0xbe, 0x26, 0x17, 0x08, 0xbe, 0x80, 0xd3, 0x46, 0xbc,
  0x22, 0xec, 0xae, 0xbd, 0x10, 0x2b, 0x77, 0xbd, 0x26, 0xee, 0x3c, 0x3e,
  0x19, 0xe1, 0x48, 0xbe, 0xe4, 0xc0, 0x86, 0x3e, 0x89, 0x88, 0x30, 0x3d,
  0x5e, 0xaa, 0x6d, 0x3e, 0xde, 0x48, 0xb1, 0xbd, 0x6a, 0x2a, 0x2e, 0x3e,
  0x97, 0xb4, 0x33, 0xbe, 0x2e, 0x03, 0xa0, 0xbd, 0x5f, 0x45, 0xa5, 0x3e,
  0x70, 0x85, 0x5f, 0xbd, 0x30, 0xfe, 0x97, 0x3e, 0x1f, 0x41, 0x01, 0xbd,
  0xe0, 0x0e, 0x26, 0xbe, 0xc5, 0xee, 0x87, 0x3e, 0xf2, 0x30, 0x33, 0xbe,
  0xb1, 0x8d, 0xa5, 0xbe, 0x5e, 0x70, 0x87, 0x3e, 0x71, 0x53, 0x84, 0x3e,
  0x82, 0x6d, 0x8a, 0x3e, 0x3f, 0x2f, 0x09, 0x3e, 0x4d, 0x86, 0xee, 0xbd,
  0xa0, 0x1f, 0x42, 0x3d, 0x67, 0x2b, 0x30, 0xbe, 0x2c, 0x8e, 0x18, 0x3e,
  0xa7, 0x5a, 0x2f, 0xbe, 0x59, 0x27, 0xde, 0x3d, 0xdf, 0x05, 0x42, 0xbe,
  0x7e, 0xe9, 0x5d, 0x3e, 0xc0, 0x7a, 0x5e, 0x3e, 0x25, 0xc1, 0x99, 0xbe,
  0x0a, 0x4f, 0x8d, 0x3e, 0x7c, 0xe9, 0xe8, 0x3d, 0xfd, 0x62, 0xd2, 0xbd,
  0xb3, 0x59, 0x6a, 0x3e, 0xf0, 0xf3, 0x92, 0x3c, 0xa2, 0x64, 0x28, 0x3e,
  0x85, 0x66, 0x3a, 0xbe, 0x71, 0x7e, 0x73, 0xbe, 0x0a, 0xf7, 0x44, 0xbe,
  0xc1, 0x6f, 0xd6, 0xbe, 0xb0, 0x88, 0x28, 0x3e, 0xed, 0xfe, 0x89, 0x3e,
  0x71, 0x77, 0x18, 0x3e, 0x20, 0x8a, 0x09, 0x3e, 0x89, 0x5d, 0x1d, 0xbe,
  0x7d, 0x15, 0xdd, 0xbd, 0x9b, 0x94, 0x21, 0xbe, 0x7e, 0xce, 0x41, 0xbe,
  0x88, 0xa7, 0x98, 0xbe, 0x6c, 0xa6, 0xa0, 0x3d, 0xc7, 0x2e, 0x74, 0x3e,
  0x92, 0xc3, 0x9a, 0x3e, 0xd7, 0x57, 0x6b, 0x3e, 0x06, 0x85, 0x2c, 0xbe,
  0x86, 0x0e, 0x90, 0x3e, 0xeb, 0xa4, 0x95, 0xbe, 0xd8, 0x4a, 0x84, 0x3e,
  0xca, 0xb8, 0x14, 0x3e, 0xb6, 0xaa, 0x3c, 0xbe, 0xa0, 0x4f, 0x25, 0xbc,
  0xdb, 0xaf, 0x40, 0xbe, 0x83, 0xa3, 0x53, 0x3e, 0x64, 0x96, 0x94, 0xbe,
  0xda, 0xb0, 0x56, 0xbc, 0x92, 0xc4, 0x41, 0xbe, 0x13, 0x46, 0x94, 0x3e,
  0xd6, 0xa1, 0x0f, 0x3e, 0xa3, 0x0d, 0x88, 0xbe, 0x72, 0xb2, 0xc2, 0xbd,
  0x88, 0x18, 0x5f, 0x3e, 0x52, 0xdb, 0x84, 0xbd, 0xb2, 0x5a, 0x45, 0xbe,
  0xb7, 0xbc, 0x87, 0x3e, 0x00, 0xe7, 0xd4, 0x3b, 0xe2, 0xa9, 0xb3, 0xbe,
  0x8a, 0xca, 0x2b, 0x3e, 0xc0, 0x0a, 0x77, 0x3e, 0x62, 0xe3, 0x49, 0xbd,
  0x4e, 0x9b, 0x41, 0x3e, 0xb3, 0x46, 0x09, 0xbe, 0x04, 0xa0, 0x8a, 0x3d,
  0x60, 0xbd, 0xa7, 0x3e, 0x40, 0x9b, 0x51, 0x3e, 0x9a, 0x92, 0xd5, 0xbd,
  0xe8, 0xdd, 0x81, 0xbd, 0xb2, 0x1e, 0x85, 0x3e, 0x31, 0x1a, 0x2b, 0x3e,
  0x05, 0xcf, 0x32, 0xbc, 0x07, 0x25, 0x23, 0xbb, 0xce, 0x15, 0x5b, 0x3e,
  0x67, 0x20, 0x5e, 0xbe, 0x5f, 0xdd, 0x05, 0xbd, 0xa4, 0x69, 0xad, 0x3c,
  0x38, 0xb5, 0xd8, 0xbd, 0x04, 0xae, 0x4a, 0xbe, 0xa2, 0xcc, 0x0b, 0xbe,
  0xbe, 0x11, 0xa2, 0xbe, 0xe1, 0x61, 0x8e, 0x3e, 0xa8, 0xef, 0x38, 0xbd,
  0x51, 0x9f, 0x8c, 0xbb, 0xe6, 0x5b, 0xa6, 0xbe, 0x60, 0x46, 0xa2, 0x3e,
  0x20, 0x44, 0x90, 0xbe, 0xf1, 0x1f, 0x8a, 0xbe, 0xe0, 0x77, 0x70, 0xbd,
  0x03, 0xb8, 0xdb, 0x3d, 0xf4, 0x10, 0x75, 0x3e, 0x80, 0x56, 0xa0, 0x3d,
  0x71, 0x48, 0xcd, 0xbd, 0xa6, 0x84, 0x67, 0xbe, 0x32, 0xa4, 0x14, 0x3e,
  0x6b, 0x62, 0x04, 0x3e, 0xe5, 0x82, 0x98, 0xbe, 0xff, 0x7d, 0xaf, 0xbe,
  0x16, 0xaf, 0x41, 0xbe, 0x27, 0x5f, 0x31, 0xbd, 0xf0, 0xd2, 0xbe, 0xbd,
  0xfe, 0xbf, 0x70, 0xbe, 0xf4, 0x5f, 0x74, 0x3e, 0xd1, 0x9e, 0xdc, 0xbb,
  0xd1, 0x88, 0xb5, 0x3d, 0x98, 0x65, 0x61, 0xbe, 0x46, 0xc5, 0xa9, 0x3d,
  0xea, 0xba, 0xe0, 0xbd, 0x0c, 0x35, 0x83, 0xbe, 0x47, 0xf4, 0x29, 0x3d,
  0x33, 0x0b, 0x55, 0xbe, 0xf2, 0xf6, 0x9f, 0x3e, 0xa7, 0x5d, 0xcf, 0xbd,
  0x38, 0x99, 0x91, 0xbe, 0xd9, 0x33, 0xe5, 0xbd, 0xa4, 0x41, 0x9d, 0x3e,
  0x85, 0x6f, 0x0d, 0xbd, 0x0b, 0x94, 0xc9, 0xbb, 0xf8, 0xb7, 0x75, 0xbd,
  0x90, 0xe0, 0x2d, 0x3d, 0x9e, 0xf8, 0x07, 0xbe, 0x8e, 0x02, 0x82, 0xbe,
  0xcf, 0x44, 0x9a, 0xbd, 0xba, 0xb9, 0x13, 0x3e, 0xa6, 0xa4, 0x63, 0x3e,
  0x06, 0x4a, 0xb4, 0x3c, 0xb8, 0xc4, 0x4a, 0x3e, 0x72, 0xc7, 0x86, 0x3e,
  0x3c, 0xf8, 0xd2, 0x3d, 0xc7, 0xe7, 0x21, 0xbd, 0xf2, 0xc1, 0xa6, 0x3e,
  0x39, 0xd7, 0x84, 0xbd, 0x98, 0xee, 0x84, 0xbd, 0xe9, 0x85, 0x22, 0xbc,
  0x17, 0xc4, 0x8e, 0xbe, 0xca, 0x46, 0x9d, 0x3e, 0x2a, 0xfe, 0xa2, 0x3e,
  0x79, 0xe0, 0x56, 0xbd, 0x38, 0xfc, 0xac, 0xbd, 0x0b, 0xa7, 0x9b, 0x3e,
  0x94, 0x8f, 0x6d, 0xbe, 0x07, 0x99, 0xda, 0xbd, 0xd3, 0x48, 0x77, 0xbe,
  0xa2, 0x35, 0x43, 0xbe, 0x62, 0x48, 0x91, 0x3e, 0xe6, 0x6b, 0x63, 0xbe,
  0xde, 0xa0, 0x3d, 0xbe, 0x93, 0xdf, 0x72, 0xbd, 0x09, 0xae, 0x38, 0x3e,
  0xf5, 0xd8, 0x54, 0x3d, 0xf4, 0x2c, 0x1a, 0xbe, 0xa0, 0x66, 0xd6, 0x3a,
  0x88, 0x46, 0x87, 0xbd, 0x2c, 0xee, 0xb0, 0x3d, 0x5d, 0x96, 0x17, 0x3d,
  0x38, 0xb4, 0x97, 0x3e, 0xd0, 0xa6, 0x6c, 0xbe, 0x00, 0xc0, 0x63, 0x3e,
  0x78, 0x50, 0x27, 0x3e, 0x25, 0xab, 0xaa, 0xbc, 0xa8, 0x37, 0x9a, 0xbe,
  0x6b, 0x21, 0x96, 0xbe, 0x8e, 0x54, 0xc2, 0xbd, 0x6e, 0x34, 0xa8, 0x3e,
  0xd0, 0xc3, 0xc0, 0x3d, 0xc6, 0x8d, 0x1d, 0xbe, 0xcf, 0xa9, 0x83, 0xbe,
  0x0a, 0x13, 0x69, 0xbe, 0x20, 0x79, 0x94, 0xbe, 0xc8, 0x0e, 0x81, 0x3d,
  0x60, 0xdb, 0x45, 0xbe, 0x96, 0x72, 0x96, 0xbe, 0x98, 0x64, 0xcb, 0xbe,
  0xfe, 0x1f, 0x5c, 0xbd, 0x25, 0x4c, 0x6e, 0xbe, 0x6a, 0xc0, 0x52, 0xbd,
  0x6c, 0x5e, 0x33, 0xbe, 0xd0, 0x48, 0x5f, 0x3e, 0x57, 0xfb, 0x94, 0xbe,
  0x11, 0xf4, 0x06, 0x3d, 0x30, 0xcc, 0x50, 0xbd, 0x20, 0x8c, 0xea, 0x3c,
  0xfd, 0x9d, 0x36, 0xbe, 0x05, 0xaa, 0xaf, 0x3d, 0x19, 0xb1, 0x90, 0xbd,
  0x30, 0x61, 0x7e, 0x3e, 0xcd, 0x0e, 0x04, 0xbc, 0xf9, 0x89, 0x62, 0x3e,
  0xa4, 0x81, 0xca, 0x3d, 0x77, 0x89, 0x3c, 0xbe, 0x83, 0x1f, 0x1a, 0xbe,
  0xdc, 0xe9, 0x9b, 0x3c, 0x5a, 0xbe, 0x98, 0xbe, 0x38, 0xe8, 0x4e, 0xbe,
  0x88, 0x96, 0xa9, 0x3d, 0xf2, 0x5b, 0x54, 0x3e, 0xce, 0x91, 0xef, 0xbd,
  0xee, 0xc2, 0xa2, 0x3d, 0x97, 0xe0, 0xe6, 0xbc, 0xe9, 0x7d, 0x00, 0x3e,
  0xf5, 0xaf, 0x29, 0x3e, 0x17, 0x22, 0x1d, 0xbd, 0xd6, 0xd3, 0x15, 0xbe,
  0xc8, 0x62, 0xc9, 0xbd, 0x1b, 0x90, 0x25, 0x3e, 0x40, 0x99, 0x26, 0x3d,
  0x8d, 0x4c, 0x9f, 0x3e, 0xf6, 0xd0, 0x84, 0x3e, 0x13, 0xc9, 0x47, 0xbe,
  0x16, 0x22, 0x26, 0xbc, 0xd0, 0x68, 0x08, 0xbd, 0x7b, 0x17, 0x13, 0xbe,
  0x16, 0xdd, 0x64, 0x3d, 0x41, 0x71, 0x2b, 0xbe, 0x28, 0x14, 0x40, 0xbd,
  0x80, 0x85, 0xd0, 0x3c, 0xc9, 0x6b, 0xa0, 0xbd, 0xf3, 0x6e, 0x5a, 0xbd,
  0x00, 0x17, 0xb3, 0xba, 0x24, 0x41, 0x49, 0x3e, 0x7d, 0x82, 0xc6, 0x3c,
  0xe1, 0x2c, 0x03, 0x3e, 0x45, 0x74, 0x05, 0xbe, 0xb0, 0x46, 0x7f, 0x3e,
  0xf4, 0xe3, 0x30, 0xbe, 0xd7, 0x77, 0x95, 0xbe, 0x7a, 0xc7, 0x8f, 0x3c,
  0x0c, 0xa6, 0xef, 0xbd, 0xd5, 0x4d, 0x74, 0xbe, 0xed, 0xa5, 0x8f, 0xbe,
  0xf2, 0xae, 0x25, 0xbe, 0x4c, 0xbe, 0x2c, 0x3e, 0x40, 0xd4, 0xc5, 0x3c,
  0x43, 0x1d, 0xed, 0xbd, 0xb6, 0xd5, 0x5f, 0x3e, 0x40, 0x13, 0x4c, 0x3d,
  0xdc, 0x6f, 0x99, 0xbc, 0xb1, 0x41, 0xe1, 0xbc, 0x80, 0x79, 0x9e, 0xbb,
  0xbc, 0x64, 0x89, 0x3e, 0xe0, 0xd4, 0x2b, 0x3c, 0x44, 0xe6, 0x9d, 0x3d,
  0x29, 0x54, 0x82, 0x3e, 0xf8, 0x57, 0x99, 0xbe, 0xf8, 0x4f, 0xd2, 0x3d,
  0xdd, 0x72, 0x2e, 0xbe, 0x72, 0xdb, 0x16, 0xbe, 0x7a, 0x0e, 0xb7, 0x3b,
  0x3e, 0x2e, 0x32, 0x3e, 0x39, 0xdb, 0x60, 0x3e, 0x54, 0x22, 0x77, 0xbe,
  0x7b, 0x56, 0x81, 0x3e, 0x50, 0x9e, 0x8f, 0x3c, 0x4b, 0xd7, 0x86, 0xbe,
  0x0d, 0x45, 0x8b, 0xbe, 0xae, 0x9b, 0x22, 0x3e, 0xc5, 0x56, 0x96, 0xbd,
  0xec, 0x13, 0x82, 0x3d, 0x02, 0x14, 0x04, 0x3d, 0xee, 0x39, 0x71, 0xbe,
  0x88, 0xf0, 0x99, 0x3d, 0x86, 0x44, 0x53, 0x3e, 0xe4, 0xb5, 0x3d, 0xbe,
  0xf0, 0xba, 0xba, 0x3c, 0xb8, 0x28, 0xaa, 0xbe, 0x4e, 0x3a, 0x36, 0xbe,
  0x10, 0xc1, 0x90, 0xbe, 0xa4, 0xc1, 0x98, 0xbd, 0x6c, 0xc4, 0xa0, 0x3d,
  0x7e, 0x69, 0x7d, 0xbe, 0x51, 0xfe, 0x4d, 0x3e, 0x07, 0x92, 0x1a, 0x3e,
  0x5c, 0x88, 0xc9, 0xbc, 0xa9, 0x56, 0x91, 0x3e, 0x63, 0x8f, 0x9b, 0xbe,
  0xba, 0x3d, 0x1d, 0x3e, 0x76, 0x31, 0x83, 0x3d, 0x18, 0xc4, 0x0b, 0x3e,
  0xb8, 0xcb, 0xa2, 0xbd, 0xee, 0x83, 0x39, 0xbc, 0x28, 0x9b, 0x7d, 0x3e,
  0x1c, 0xb4, 0x84, 0xbd, 0x18, 0x11, 0x89, 0xbd, 0xad, 0x45, 0xf7, 0xbd,
  0xcf, 0x2c, 0x50, 0x3d, 0x98, 0x4f, 0xbc, 0x3d, 0x19, 0xe2, 0x83, 0x3e,
  0x9f, 0x44, 0x05, 0xbe, 0x32, 0x99, 0x75, 0xbe, 0x89, 0x78, 0x2f, 0x3e,
  0x84, 0x2f, 0x36, 0x3e, 0x29, 0xd2, 0xb4, 0xbd, 0x5a, 0xec, 0xa0, 0x3e,
  0xc8, 0xf3, 0x2e, 0xbd, 0xfc, 0xba, 0x99, 0x3d, 0xef, 0x03, 0xa4, 0xbc,
  0x45, 0x19, 0x76, 0xbe, 0x83, 0xc5, 0xeb, 0x3d, 0xd1, 0x61, 0x47, 0x3e,
  0x64, 0x8e, 0x37, 0xbe, 0xbb, 0x6f, 0x93, 0xbe, 0x50, 0x73, 0x8e, 0x3d,
  0x2c, 0xda, 0x98, 0x3e, 0x1d, 0x8a, 0xf0, 0xbd, 0xae, 0x90, 0x8b, 0x3d,
  0x2d, 0x78, 0x94, 0xbe, 0x1b, 0xea, 0xcd, 0xbe, 0x9c, 0xa9, 0x68, 0x3e,
  0x7f, 0x13, 0x2f, 0x3e, 0xce, 0xfe, 0x3c, 0x3e, 0xa4, 0x15, 0x8d, 0xbe,
  0x47, 0xfb, 0x7b, 0x3e, 0x29, 0xf9, 0xb0, 0xbd, 0x48, 0x37, 0x85, 0xbe,
  0xb9, 0x01, 0x01, 0xbd, 0xa6, 0x46, 0xb2, 0xbd, 0xf9, 0xf2, 0x38, 0xbe,
  0xd4, 0x5f, 0xb0, 0x3d, 0x80, 0xa1, 0x49, 0xbd, 0xef, 0x7b, 0x35, 0xbe,
  0xce, 0xe6, 0x38, 0x3e, 0xee, 0x41, 0x24, 0xbe, 0xd9, 0xcc, 0xba, 0xbe,
  0x5e, 0xad, 0xb9, 0xbe, 0xc3, 0x38, 0x9c, 0x3d, 0x11, 0x02, 0x10, 0x3e,
  0xd1, 0x96, 0xce, 0xbd, 0x48, 0x79, 0x8a, 0xbe, 0x4b, 0x31, 0x6e, 0xbc,
  0x13, 0xca, 0xd1, 0xbe, 0xe2, 0xe1, 0x82, 0x3e, 0x75, 0x24, 0x08, 0x3e,
  0xee, 0xf9, 0x08, 0x3e, 0xdd, 0xf0, 0x21, 0xbb, 0x88, 0x8e, 0x35, 0x3e,
  0xe0, 0x55, 0xa8, 0xbe, 0xd2, 0x45, 0x13, 0xbe, 0x17, 0xc8, 0x81, 0x3e,
  0x42, 0xa1, 0x29, 0xbe, 0x49, 0x85, 0x4e, 0x3e, 0x90, 0x85, 0x17, 0xbd,
  0x5b, 0xa4, 0xbf, 0xbb, 0x5d, 0x89, 0xda, 0xbc, 0x42, 0xab, 0x37, 0xbe,
  0x7c, 0xa1, 0x92, 0x3d, 0x90, 0x8d, 0x74, 0x3e, 0x45, 0x01, 0x83, 0x3e,
  0x41, 0xe4, 0xa6, 0x3d, 0x23, 0x73, 0x2f, 0xbe, 0xb1, 0x1f, 0x8e, 0x3d,
  0x20, 0x1d, 0x86, 0x3e, 0xf9, 0x9d, 0x29, 0x3d, 0x48, 0xb3, 0x4d, 0x3e,
  0x1d, 0xb5, 0x72, 0x3e, 0x4c, 0x72, 0xef, 0xba, 0xc4, 0x67, 0x9d, 0x3d,
  0x8b, 0xd5, 0x82, 0x3e, 0x10, 0xbe, 0x4c, 0x3d, 0x08, 0xb6, 0x14, 0x3e,
  0x44, 0x81, 0x1d, 0xbe, 0x66, 0x94, 0xa3, 0xbe, 0x04, 0x37, 0x84, 0xbe,
  0xf3, 0x23, 0x9f, 0xbe, 0x7a, 0x55, 0x92, 0xbe, 0xfb, 0x99, 0x93, 0xbe,
  0x3e, 0xd0, 0x12, 0x3e, 0x6d, 0x4c, 0x0f, 0xbe, 0x21, 0xb8, 0x3a, 0xbe,
  0x90, 0x3e, 0x06, 0xbe, 0xe8, 0xae, 0x05, 0x3e, 0x9a, 0x15, 0x38, 0x3e,
  0x8e, 0x2d, 0x87, 0xbd, 0xab, 0x82, 0x5b, 0xbd, 0x7e, 0x65, 0x64, 0x3e,
  0x9c, 0xfa, 0xdc, 0x3d, 0x26, 0x65, 0x70, 0xbe, 0xd9, 0xba, 0xa1, 0x3d,
  0x36, 0x9b, 0x58, 0xbe, 0x5c, 0x5d, 0xf0, 0xbc, 0xb5, 0x24, 0x70, 0xbd,
  0x4c, 0x02, 0x57, 0x3e, 0xb0, 0x67, 0x41, 0xbe, 0xf6, 0xba, 0xa6, 0x3e,
  0xeb, 0xc1, 0x20, 0x3d, 0x28, 0xa4, 0x44, 0xbe, 0x20, 0x24, 0x6c, 0x3c,
  0x2b, 0xbb, 0x9e, 0x3e, 0x14, 0xc7, 0x58, 0xbe, 0x30, 0x2f, 0xa1, 0x3c,
  0x16, 0xab, 0x85, 0x3e, 0x90, 0x8e, 0xb0, 0xbc, 0xb8, 0x85, 0x42, 0xbe,
  0xf4, 0x0b, 0xa4, 0xbd, 0xd0, 0x85, 0xbd, 0xbc, 0x40, 0x70, 0xa8, 0xbc,
  0xa5, 0x0c, 0x8d, 0x3c, 0xdc, 0x9a, 0x3d, 0x3e, 0xa3, 0xe4, 0x8c, 0xbe,
  0x18, 0x27, 0x35, 0xbe, 0xbe, 0xba, 0x94, 0x3c, 0x14, 0xe2, 0xf4, 0xbd,
  0xf6, 0xe4, 0x8c, 0x3e, 0x1a, 0x1f, 0x16, 0x3e, 0x0c, 0x42, 0x2b, 0x3d,
  0xa5, 0x33, 0xc8, 0xbe, 0x47, 0x59, 0x1d, 0xbe, 0xbf, 0x8d, 0x75, 0xbd,
  0x90, 0x88, 0x77, 0x3e, 0x76, 0xac, 0x1f, 0xbe, 0x2d, 0xfd, 0xfd, 0xbc,
  0x1c, 0xa0, 0xa6, 0x3e, 0x20, 0xe1, 0x51, 0x3e, 0x83, 0x3e, 0x04, 0x3e,
  0x7f, 0x69, 0x0f, 0xbe, 0x2c, 0x8e, 0x62, 0x3e, 0x64, 0xab, 0xb8, 0x3d,
  0x65, 0x9a, 0x33, 0xbd, 0x34, 0x5f, 0x85, 0xbe, 0xf3, 0x02, 0x19, 0xbe,
  0x82, 0x9b, 0x94, 0x3e, 0x37, 0x89, 0x0e, 0x3e, 0x43, 0x59, 0x96, 0x3d,
  0x04, 0xfd, 0xff, 0xff, 0x0f, 0x00, 0x00, 0x00, 0x54, 0x4f, 0x43, 0x4f,
  0x20, 0x43, 0x6f, 0x6e, 0x76, 0x65, 0x72, 0x74, 0x65, 0x64, 0x2e, 0x00,
  0x01, 0x00, 0x00, 0x00, 0x10, 0x00, 0x00, 0x00, 0x0c, 0x00, 0x14, 0x00,
  0x04, 0x00, 0x08, 0x00, 0x0c, 0x00, 0x10, 0x00, 0x0c, 0x00, 0x00, 0x00,
  0xb8, 0x00, 0x00, 0x00, 0xac, 0x00, 0x00, 0x00, 0xa0, 0x00, 0x00, 0x00,
  0x04, 0x00, 0x00, 0x00, 0x02, 0x00, 0x00, 0x00, 0x58, 0x00, 0x00, 0x00,
  0x14, 0x00, 0x00, 0x00, 0x00, 0x00, 0x0e, 0x00, 0x14, 0x00, 0x00, 0x00,
  0x08, 0x00, 0x0c, 0x00, 0x07, 0x00, 0x10, 0x00, 0x0e, 0x00, 0x00, 0x00,
  0x00, 0x00, 0x00, 0x08, 0x18, 0x00, 0x00, 0x00, 0x0c, 0x00, 0x00, 0x00,
  0x04, 0x00, 0x00, 0x00, 0x74, 0xfd, 0xff, 0xff, 0x01, 0x00, 0x00, 0x00,
  0x00, 0x00, 0x00, 0x00, 0x03, 0x00, 0x00, 0x00, 0x04, 0x00, 0x00, 0x00,
  0x05, 0x00, 0x00, 0x00, 0x06, 0x00, 0x00, 0x00, 0x00, 0x00, 0x0e, 0x00,
  0x16, 0x00, 0x00, 0x00, 0x08, 0x00, 0x0c, 0x00, 0x07, 0x00, 0x10, 0x00,
  0x0e, 0x00, 0x00, 0x00, 0x00, 0x00, 0x00, 0x08, 0x24, 0x00, 0x00, 0x00,
  0x18, 0x00, 0x00, 0x00, 0x0c, 0x00, 0x00, 0x00, 0x00, 0x00, 0x06, 0x00,
  0x08, 0x00, 0x07, 0x00, 0x06, 0x00, 0x00, 0x00, 0x00, 0x00, 0x00, 0x01,
  0x01, 0x00, 0x00, 0x00, 0x04, 0x00, 0x00, 0x00, 0x03, 0x00, 0x00, 0x00,
  0x01, 0x00, 0x00, 0x00, 0x02, 0x00, 0x00, 0x00, 0x03, 0x00, 0x00, 0x00,
  0x01, 0x00, 0x00, 0x00, 0x00, 0x00, 0x00, 0x00, 0x01, 0x00, 0x00, 0x00,
  0x01, 0x00, 0x00, 0x00, 0x07, 0x00, 0x00, 0x00, 0xfc, 0x01, 0x00, 0x00,
  0x98, 0x01, 0x00, 0x00, 0x38, 0x01, 0x00, 0x00, 0xf0, 0x00, 0x00, 0x00,
  0xac, 0x00, 0x00, 0x00, 0x4c, 0x00, 0x00, 0x00, 0x04, 0x00, 0x00, 0x00,
  0x2e, 0xfe, 0xff, 0xff, 0x38, 0x00, 0x00, 0x00, 0x07, 0x00, 0x00, 0x00,
  0x0c, 0x00, 0x00, 0x00, 0x04, 0x00, 0x00, 0x00, 0x20, 0xfe, 0xff, 0xff,
  0x1c, 0x00, 0x00, 0x00, 0x6d, 0x6f, 0x64, 0x65, 0x6c, 0x5f, 0x36, 0x2f,
  0x64, 0x65, 0x6e, 0x73, 0x65, 0x5f, 0x31, 0x39, 0x2f, 0x4d, 0x61, 0x74,
  0x4d, 0x75, 0x6c, 0x5f, 0x62, 0x69, 0x61, 0x73, 0x00, 0x00, 0x00, 0x00,
  0x01, 0x00, 0x00, 0x00, 0x1e, 0x00, 0x00, 0x00, 0x72, 0xfe, 0xff, 0xff,
  0x4c, 0x00, 0x00, 0x00, 0x01, 0x00, 0x00, 0x00, 0x0c, 0x00, 0x00, 0x00,
  0x04, 0x00, 0x00, 0x00, 0x64, 0xfe, 0xff, 0xff, 0x30, 0x00, 0x00, 0x00,
  0x6d, 0x6f, 0x64, 0x65, 0x6c, 0x5f, 0x36, 0x2f, 0x64, 0x65, 0x6e, 0x73,
  0x65, 0x5f, 0x31, 0x39, 0x2f, 0x4d, 0x61, 0x74, 0x4d, 0x75, 0x6c, 0x2f,
  0x52, 0x65, 0x61, 0x64, 0x56, 0x61, 0x72, 0x69, 0x61, 0x62, 0x6c, 0x65,
  0x4f, 0x70, 0x2f, 0x74, 0x72, 0x61, 0x6e, 0x73, 0x70, 0x6f, 0x73, 0x65,
  0x00, 0x00, 0x00, 0x00, 0x02, 0x00, 0x00, 0x00, 0x1e, 0x00, 0x00, 0x00,
  0x19, 0x00, 0x00, 0x00, 0xce, 0xfe, 0xff, 0xff, 0x30, 0x00, 0x00, 0x00,
  0x06, 0x00, 0x00, 0x00, 0x0c, 0x00, 0x00, 0x00, 0x04, 0x00, 0x00, 0x00,
  0xc0, 0xfe, 0xff, 0xff, 0x15, 0x00, 0x00, 0x00, 0x6d, 0x6f, 0x64, 0x65,
  0x6c, 0x5f, 0x36, 0x2f, 0x64, 0x65, 0x6e, 0x73, 0x65, 0x5f, 0x31, 0x38,
  0x2f, 0x52, 0x65, 0x6c, 0x75, 0x00, 0x00, 0x00, 0x02, 0x00, 0x00, 0x00,
  0x01, 0x00, 0x00, 0x00, 0x19, 0x00, 0x00, 0x00, 0x0e, 0xff, 0xff, 0xff,
  0x38, 0x00, 0x00, 0x00, 0x02, 0x00, 0x00, 0x00, 0x0c, 0x00, 0x00, 0x00,
  0x04, 0x00, 0x00, 0x00, 0x00, 0xff, 0xff, 0xff, 0x1c, 0x00, 0x00, 0x00,
  0x6d, 0x6f, 0x64, 0x65, 0x6c, 0x5f, 0x36, 0x2f, 0x64, 0x65, 0x6e, 0x73,
  0x65, 0x5f, 0x31, 0x38, 0x2f, 0x4d, 0x61, 0x74, 0x4d, 0x75, 0x6c, 0x5f,
  0x62, 0x69, 0x61, 0x73, 0x00, 0x00, 0x00, 0x00, 0x01, 0x00, 0x00, 0x00,
  0x19, 0x00, 0x00, 0x00, 0x52, 0xff, 0xff, 0xff, 0x4c, 0x00, 0x00, 0x00,
  0x05, 0x00, 0x00, 0x00, 0x0c, 0x00, 0x00, 0x00, 0x04, 0x00, 0x00, 0x00,
  0x44, 0xff, 0xff, 0xff, 0x30, 0x00, 0x00, 0x00, 0x6d, 0x6f, 0x64, 0x65,
  0x6c, 0x5f, 0x36, 0x2f, 0x64, 0x65, 0x6e, 0x73, 0x65, 0x5f, 0x31, 0x38,
  0x2f, 0x4d, 0x61, 0x74, 0x4d, 0x75, 0x6c, 0x2f, 0x52, 0x65, 0x61, 0x64,
  0x56, 0x61, 0x72, 0x69, 0x61, 0x62, 0x6c, 0x65, 0x4f, 0x70, 0x2f, 0x74,
  0x72, 0x61, 0x6e, 0x73, 0x70, 0x6f, 0x73, 0x65, 0x00, 0x00, 0x00, 0x00,
  0x02, 0x00, 0x00, 0x00, 0x19, 0x00, 0x00, 0x00, 0x1e, 0x00, 0x00, 0x00,
  0xae, 0xff, 0xff, 0xff, 0x40, 0x00, 0x00, 0x00, 0x04, 0x00, 0x00, 0x00,
  0x2c, 0x00, 0x00, 0x00, 0x0c, 0x00, 0x00, 0x00, 0x08, 0x00, 0x0c, 0x00,
  0x04, 0x00, 0x08, 0x00, 0x08, 0x00, 0x00, 0x00, 0x10, 0x00, 0x00, 0x00,
  0x04, 0x00, 0x00, 0x00, 0x01, 0x00, 0x00, 0x00, 0x00, 0x00, 0x7f, 0x43,
  0x01, 0x00, 0x00, 0x00, 0x00, 0x00, 0x00, 0x00, 0x07, 0x00, 0x00, 0x00,
  0x69, 0x6e, 0x70, 0x75, 0x74, 0x5f, 0x37, 0x00, 0x02, 0x00, 0x00, 0x00,
  0x01, 0x00, 0x00, 0x00, 0x1e, 0x00, 0x00, 0x00, 0x00, 0x00, 0x0e, 0x00,
  0x14, 0x00, 0x04, 0x00, 0x00, 0x00, 0x08, 0x00, 0x0c, 0x00, 0x10, 0x00,
  0x0e, 0x00, 0x00, 0x00, 0x28, 0x00, 0x00, 0x00, 0x03, 0x00, 0x00, 0x00,
  0x10, 0x00, 0x00, 0x00, 0x08, 0x00, 0x00, 0x00, 0x04, 0x00, 0x04, 0x00,
  0x04, 0x00, 0x00, 0x00, 0x08, 0x00, 0x00, 0x00, 0x49, 0x64, 0x65, 0x6e,
  0x74, 0x69, 0x74, 0x79, 0x00, 0x00, 0x00, 0x00, 0x02, 0x00, 0x00, 0x00,
  0x01, 0x00, 0x00, 0x00, 0x1e, 0x00, 0x00, 0x00, 0x01, 0x00, 0x00, 0x00,
  0x10, 0x00, 0x00, 0x00, 0x00, 0x00, 0x0a, 0x00, 0x0c, 0x00, 0x07, 0x00,
  0x00, 0x00, 0x08, 0x00, 0x0a, 0x00, 0x00, 0x00, 0x00, 0x00, 0x00, 0x09,
  0x03, 0x00, 0x00, 0x00};

const int g_sine_model_data_len = 7204;
